-- begin_signature
-- Weight_Memory(numWeight
-- 784
-- neuronNo
-- 0
-- layerNo
-- 0
-- addressWidth
-- 10
-- dataWidth
-- 16
-- weightFile
-- "")
-- end_signature
WIDTH=16;
DEPTH=784;

ADDRESS_RADIX=UNS;
DATA_RADIX=BIN;

CONTENT BEGIN
	783 :	0110101011101100;
	782 :	0111110011100001;
	781 :	0101001100101010;
	780 :	1110001000001101;
	779 :	1000110011100000;
	778 :	0011011010111110;
	777 :	0100010110100001;
	776 :	0101000111001001;
	775 :	0001010111111010;
	774 :	1101001001001111;
	773 :	1001011101000000;
	772 :	1101001000101110;
	771 :	0011100001110111;
	770 :	0110000111101011;
	769 :	0011010010010010;
	768 :	1111000010100001;
	767 :	1110111010011110;
	766 :	0111100110100011;
	765 :	1000010111111101;
	764 :	1010110011111101;
	763 :	1110110000100010;
	762 :	0011011100001001;
	761 :	0111110011100101;
	760 :	1010001001111111;
	759 :	0101111010011010;
	758 :	0111011010101011;
	757 :	0001010010101101;
	756 :	1101110100100010;
	755 :	1100101010100100;
	754 :	1110101100010101;
	753 :	0100010110101011;
	752 :	1100010111111101;
	751 :	0100001010010000;
	750 :	0100111000100100;
	749 :	1000110110110001;
	748 :	0111100100110101;
	747 :	0110111001110000;
	746 :	1101101110011101;
	745 :	1111100001010011;
	744 :	0010000010010001;
	743 :	0110100110110010;
	742 :	0110001110111001;
	741 :	1101100110101010;
	740 :	0011110001100001;
	739 :	1011000011101000;
	738 :	1100001001010011;
	737 :	0000110011101100;
	736 :	0111001101010010;
	735 :	1100110110000110;
	734 :	1001110001000010;
	733 :	0110111101100011;
	732 :	0110111100001110;
	731 :	0001100000000111;
	730 :	1100010001100010;
	729 :	1101010000000011;
	728 :	1101101101110000;
	727 :	1100110100001010;
	726 :	1110101110010110;
	725 :	1000101110111001;
	724 :	0111001111000111;
	723 :	0001011010110110;
	722 :	1101100101100010;
	721 :	1010000010000111;
	720 :	0100110101101101;
	719 :	1100000111101110;
	718 :	0101010101110101;
	717 :	0110010000010011;
	716 :	1100110110000001;
	715 :	1011011100100111;
	714 :	1000011011011110;
	713 :	1001101101101100;
	712 :	0000110001110010;
	711 :	1011110111011011;
	710 :	1100011001001110;
	709 :	0010100101110100;
	708 :	0110000111101011;
	707 :	0001100001000111;
	706 :	0100111100111110;
	705 :	1100111111000111;
	704 :	0101100110001011;
	703 :	0011001010010100;
	702 :	0001110111110000;
	701 :	0011111001100101;
	700 :	0010101111110110;
	699 :	0111011010100111;
	698 :	0110011000011110;
	697 :	1110100111100110;
	696 :	0101011000000100;
	695 :	1000010110111000;
	694 :	1101001110100001;
	693 :	0101101000101010;
	692 :	0001010000010001;
	691 :	0010001001001101;
	690 :	0100110011110111;
	689 :	1110100111011011;
	688 :	0110100110000011;
	687 :	0001101111001010;
	686 :	1000101000101011;
	685 :	0101010001001000;
	684 :	0001111011001100;
	683 :	0110110001011111;
	682 :	1010011111101000;
	681 :	1100101000100010;
	680 :	1000101111001000;
	679 :	1111001001011011;
	678 :	1001001100010100;
	677 :	0100100101000010;
	676 :	1011100010110100;
	675 :	1010010110001100;
	674 :	0000101110011111;
	673 :	0101001011101100;
	672 :	0010011111000110;
	671 :	1100110111101010;
	670 :	1100111000001010;
	669 :	0010000000100110;
	668 :	1010011110100001;
	667 :	1010111000101010;
	666 :	0010110001011001;
	665 :	1000100001100110;
	664 :	1011010111010111;
	663 :	0111110111010010;
	662 :	0101101110101011;
	661 :	1110111110010100;
	660 :	0011000101110111;
	659 :	0111100001000000;
	658 :	1000000000001111;
	657 :	0011010000000111;
	656 :	1110010000010110;
	655 :	0011011100000010;
	654 :	1110101001111111;
	653 :	1111010110010001;
	652 :	1111100000011100;
	651 :	1000110010001010;
	650 :	0000001111010110;
	649 :	0001011001011100;
	648 :	1011010111000100;
	647 :	0011010101010110;
	646 :	1011110010111001;
	645 :	1001010001001010;
	644 :	1111110101111100;
	643 :	1110111100010101;
	642 :	0011111001100110;
	641 :	1111001111100000;
	640 :	1001011110101000;
	639 :	0011011010010111;
	638 :	1101111011100110;
	637 :	0000111101000001;
	636 :	1011000100011000;
	635 :	1001110011111001;
	634 :	1100101111000111;
	633 :	0010110101101011;
	632 :	1000101011110111;
	631 :	0001010000011111;
	630 :	0001011101101110;
	629 :	0010001000010010;
	628 :	1110010101100001;
	627 :	0111111110100100;
	626 :	0101111000111001;
	625 :	1101011110111111;
	624 :	1101101101001010;
	623 :	0100100100011001;
	622 :	1010000110010111;
	621 :	0111010000011010;
	620 :	0000111100000101;
	619 :	0101000001001001;
	618 :	0000100010101010;
	617 :	0010111100100110;
	616 :	1111101010011001;
	615 :	0001101000001000;
	614 :	1000000000011111;
	613 :	1011110101110101;
	612 :	1000111001100110;
	611 :	0110001110101110;
	610 :	0110111001110110;
	609 :	1100111000001000;
	608 :	0000111011110101;
	607 :	0100101010010010;
	606 :	1110100011010100;
	605 :	0011011100100001;
	604 :	1001101001111111;
	603 :	0100101110100011;
	602 :	0011111001010001;
	601 :	1010110101110101;
	600 :	1001110110011100;
	599 :	1111100000101011;
	598 :	0100100001101010;
	597 :	0000100101010010;
	596 :	0101010111101011;
	595 :	1010001010100001;
	594 :	1011010000010100;
	593 :	1100100110000101;
	592 :	0100000100001111;
	591 :	0100010110010010;
	590 :	1010111001011010;
	589 :	1111000011011010;
	588 :	1010101101010110;
	587 :	0111100010001001;
	586 :	0010000011000101;
	585 :	1001011100111110;
	584 :	1001111010100111;
	583 :	0001110101111001;
	582 :	0000111111101100;
	581 :	0101001001001101;
	580 :	0100011111001001;
	579 :	1001001111011010;
	578 :	1111111101111110;
	577 :	1001000000000110;
	576 :	1110011101011110;
	575 :	0101101000101111;
	574 :	1001100011101100;
	573 :	0010101000100000;
	572 :	1110011110011100;
	571 :	1011111110101110;
	570 :	0101111110110101;
	569 :	0011100111010111;
	568 :	0000010111011101;
	567 :	0111000010011010;
	566 :	0101010100101010;
	565 :	1101111001001111;
	564 :	0101000000001011;
	563 :	1001101110010000;
	562 :	1100101000010101;
	561 :	0001101010010010;
	560 :	1001111011001001;
	559 :	1001110001110100;
	558 :	1101010111001101;
	557 :	0101011000111000;
	556 :	1011001101010111;
	555 :	1000001110000110;
	554 :	0001001111010110;
	553 :	0100011010000001;
	552 :	1101100001110001;
	551 :	0111000101110111;
	550 :	0100101111011000;
	549 :	0001111110001101;
	548 :	1111100111000111;
	547 :	1111111001100101;
	546 :	1100110011110000;
	545 :	0010101011101100;
	544 :	1100010011011010;
	543 :	1111000000110001;
	542 :	0011110101001000;
	541 :	1011011001010000;
	540 :	0000000000010101;
	539 :	0111011001101010;
	538 :	1110011000101000;
	537 :	1010101001111111;
	536 :	0110001011111101;
	535 :	0000100101010110;
	534 :	1100011100010000;
	533 :	1101110100010110;
	532 :	1111010101100011;
	531 :	1110001111101100;
	530 :	0001010010010100;
	529 :	0100100101000101;
	528 :	0010011001111001;
	527 :	0001010010100100;
	526 :	0111010011010100;
	525 :	1000001001010100;
	524 :	0110111101001000;
	523 :	1100101110101000;
	522 :	0111000000011110;
	521 :	0001101001101011;
	520 :	1011001000101010;
	519 :	0011000010001100;
	518 :	1010110011010000;
	517 :	1010100010010000;
	516 :	1110110111000000;
	515 :	1001011001010011;
	514 :	0011111100100001;
	513 :	0100011111101101;
	512 :	0111100011000111;
	511 :	0111000011000110;
	510 :	1100100001001001;
	509 :	0001001000110010;
	508 :	1000110101001111;
	507 :	0101110100011010;
	506 :	0110011000001010;
	505 :	1010000101001011;
	504 :	1011011000101001;
	503 :	1110101100110011;
	502 :	0001011011011101;
	501 :	0001111001011001;
	500 :	0000010010101010;
	499 :	0100001011100001;
	498 :	0001000001001110;
	497 :	0000011011101110;
	496 :	0101110010111010;
	495 :	1011101011110001;
	494 :	0111001010101110;
	493 :	0011001101111000;
	492 :	0110111100110011;
	491 :	0010011011100101;
	490 :	1101001101001000;
	489 :	0110010111011110;
	488 :	1000100000111111;
	487 :	0011001111000100;
	486 :	1000000110001101;
	485 :	0110011101001001;
	484 :	1101100000001110;
	483 :	0000000000100011;
	482 :	0101111100100010;
	481 :	0110011010010001;
	480 :	0110011000001100;
	479 :	0010000001111010;
	478 :	1010010001001001;
	477 :	0000010111001001;
	476 :	0001110110110000;
	475 :	0001111001011101;
	474 :	0010011001110101;
	473 :	0001001110010010;
	472 :	1111011001010101;
	471 :	1011101111000110;
	470 :	0011110000111100;
	469 :	0001000000010000;
	468 :	1010111111111111;
	467 :	0100001110011000;
	466 :	1100110000100100;
	465 :	0111000110000010;
	464 :	1100001000010110;
	463 :	0110101010010110;
	462 :	1100010011010010;
	461 :	1111010010000111;
	460 :	0000110111111000;
	459 :	1010010010011001;
	458 :	0010100111000100;
	457 :	0111010000011011;
	456 :	0011111001101001;
	455 :	0101000101101011;
	454 :	0001010100101101;
	453 :	0111001000111100;
	452 :	0011011101011101;
	451 :	1000001100100000;
	450 :	1110001010010111;
	449 :	0100011001011101;
	448 :	0010101101000000;
	447 :	1001110110101011;
	446 :	1011110010010000;
	445 :	1001011000000010;
	444 :	0011011110110111;
	443 :	0010001110010010;
	442 :	0000101111110111;
	441 :	1110011110110000;
	440 :	0111010101000000;
	439 :	1111010011000010;
	438 :	0011110010000001;
	437 :	0010111111001010;
	436 :	1100011101101100;
	435 :	0000010011000011;
	434 :	0101000000110000;
	433 :	1111000101100011;
	432 :	1100001111111111;
	431 :	0111110011110011;
	430 :	1011101001010100;
	429 :	1001100110110110;
	428 :	0100000001100001;
	427 :	0110101010011001;
	426 :	1011110100001000;
	425 :	1111111001000000;
	424 :	0010100000000110;
	423 :	1100000010001010;
	422 :	1000010011001000;
	421 :	1000001000001010;
	420 :	0101100000000111;
	419 :	0100101101011100;
	418 :	0110010011001101;
	417 :	1110001011110001;
	416 :	0001110100010001;
	415 :	1111100000000100;
	414 :	1011111111111100;
	413 :	1010101110001101;
	412 :	0101101100001011;
	411 :	0000001000000100;
	410 :	1101011001001101;
	409 :	0001101001110011;
	408 :	1100111100000010;
	407 :	1110011100111010;
	406 :	0110011110000011;
	405 :	1000001110001010;
	404 :	1111111101011000;
	403 :	0010011111011001;
	402 :	1110101000011111;
	401 :	1010110001011011;
	400 :	0011010011011011;
	399 :	1011100111010100;
	398 :	0000101100110010;
	397 :	1110110010000011;
	396 :	0011000000101000;
	395 :	0011001101011000;
	394 :	0000100101011001;
	393 :	1100000001101100;
	392 :	0111011111011010;
	391 :	0101110010000100;
	390 :	1010101000011110;
	389 :	0001000000000110;
	388 :	1100000010000101;
	387 :	0000101010011110;
	386 :	1111101000011001;
	385 :	0011010010111100;
	384 :	0110101011100111;
	383 :	0111001011111111;
	382 :	0111011110100101;
	381 :	0100011110011001;
	380 :	0111100101100010;
	379 :	0010100110011011;
	378 :	0001011100000110;
	377 :	1100010001101111;
	376 :	0110000100000100;
	375 :	1111110101101100;
	374 :	0100101111000110;
	373 :	1011000000110010;
	372 :	1011011001100101;
	371 :	1010101100000011;
	370 :	1000011000011101;
	369 :	0110110011010011;
	368 :	1111000101100110;
	367 :	0011111110010100;
	366 :	1100111000110000;
	365 :	1110011000001001;
	364 :	0100110010110011;
	363 :	1100110100110110;
	362 :	0100011100111000;
	361 :	0000010110000001;
	360 :	1000111110111011;
	359 :	1000011100010101;
	358 :	0110110111000100;
	357 :	0100111011010001;
	356 :	0001111000011100;
	355 :	0000011101100110;
	354 :	1101111101001101;
	353 :	1100010011110100;
	352 :	1011111110001110;
	351 :	1001001100001000;
	350 :	1101011001011010;
	349 :	0010010100000111;
	348 :	0110101111010001;
	347 :	0101011010000000;
	346 :	1110111101001010;
	345 :	1001100000100100;
	344 :	0100010010110100;
	343 :	0011111110010011;
	342 :	1011111101000010;
	341 :	1010011110000010;
	340 :	0000011011010110;
	339 :	1010101110111100;
	338 :	0111101100110111;
	337 :	0110100000011110;
	336 :	1010011101100010;
	335 :	0001110000000101;
	334 :	1100101100010001;
	333 :	0001011100011110;
	332 :	0011000010110001;
	331 :	0110000000111010;
	330 :	0000100110100001;
	329 :	1100010010011111;
	328 :	0100000010110000;
	327 :	1000001101010010;
	326 :	0010000001000100;
	325 :	1111110011111010;
	324 :	1100110101011000;
	323 :	1010101110111100;
	322 :	1101110011000111;
	321 :	1111010111110011;
	320 :	0010101010111001;
	319 :	0100000010010010;
	318 :	1011111100101110;
	317 :	1101011011001001;
	316 :	0010011101100100;
	315 :	1110011001100111;
	314 :	1101011101110011;
	313 :	0000100010010011;
	312 :	0010111110000000;
	311 :	1000011110100000;
	310 :	0011011010011011;
	309 :	1100000011101111;
	308 :	0001010011001100;
	307 :	1011011000100001;
	306 :	1010001010111000;
	305 :	1000010111100010;
	304 :	1001101001111011;
	303 :	0100011110000010;
	302 :	0111000101110101;
	301 :	0001010110000000;
	300 :	1111011010011101;
	299 :	0111000011111111;
	298 :	0000000000000000;
	297 :	1101000011111001;
	296 :	1001110100100100;
	295 :	1110101110001110;
	294 :	0110111000000001;
	293 :	1001011001101001;
	292 :	0010010100110100;
	291 :	1110110000100101;
	290 :	0001000111001011;
	289 :	0000011010110011;
	288 :	1101111100010001;
	287 :	1011101010110110;
	286 :	0110010011110010;
	285 :	0011100111110110;
	284 :	0111011000011011;
	283 :	1010110001100000;
	282 :	0100111110011000;
	281 :	1100110101001010;
	280 :	1111011110011100;
	279 :	0111001000000111;
	278 :	1111101010011110;
	277 :	1100001111110011;
	276 :	0110011110101001;
	275 :	1100011110101000;
	274 :	0000101111101110;
	273 :	0101101100001101;
	272 :	0001010101111110;
	271 :	1000110000110011;
	270 :	1011000100000110;
	269 :	0011111100010011;
	268 :	0010000110000011;
	267 :	1101011001101010;
	266 :	1010010001111011;
	265 :	0011010101011011;
	264 :	0000111001101110;
	263 :	1111011010101111;
	262 :	1100111110011000;
	261 :	0110100011001001;
	260 :	1011111100111001;
	259 :	0010010011110110;
	258 :	0100010000000111;
	257 :	1110111010001100;
	256 :	1011100001110000;
	255 :	1000100010000110;
	254 :	0000000010100011;
	253 :	1110000011110000;
	252 :	0111111111100101;
	251 :	1010001110000100;
	250 :	1011011101100001;
	249 :	1000111100111111;
	248 :	1101000101010110;
	247 :	1101111011011111;
	246 :	1000110001110001;
	245 :	0110110111110111;
	244 :	0001000101011111;
	243 :	1101110010110110;
	242 :	1000111100110100;
	241 :	1110010111101110;
	240 :	1101000100011111;
	239 :	0010100000110100;
	238 :	1000000110101101;
	237 :	1101001010000001;
	236 :	0110100000011111;
	235 :	0011011001001110;
	234 :	1000100000101101;
	233 :	1110011011110111;
	232 :	1011010110011000;
	231 :	0001001001010011;
	230 :	0011101000110100;
	229 :	0100100100001000;
	228 :	1000001110011111;
	227 :	1010111000000110;
	226 :	0000110010010001;
	225 :	0100101010100111;
	224 :	1000110100100001;
	223 :	1000011101001111;
	222 :	0000100100111110;
	221 :	1100101011111001;
	220 :	1111100110111001;
	219 :	0011101101100101;
	218 :	1011100111111010;
	217 :	1001101010000110;
	216 :	1011010001111101;
	215 :	0100000011100110;
	214 :	1001101000110001;
	213 :	0010101001110111;
	212 :	1000010011000011;
	211 :	1101101001011110;
	210 :	1111100001100011;
	209 :	0110111111010100;
	208 :	1100010001111100;
	207 :	1011110100100010;
	206 :	1010011000101100;
	205 :	1000011110011111;
	204 :	1000001000101000;
	203 :	1101000101010110;
	202 :	0100011110001011;
	201 :	0010011011111100;
	200 :	0011110010011101;
	199 :	1011011101001001;
	198 :	1110010010101110;
	197 :	0100100001110010;
	196 :	0110000000110111;
	195 :	1110100011100010;
	194 :	0010110000001001;
	193 :	0000011010100000;
	192 :	1101101100111101;
	191 :	1100001111010100;
	190 :	0001111001000001;
	189 :	1000011011101000;
	188 :	1011010000100011;
	187 :	0101111100000000;
	186 :	0101100100101001;
	185 :	1100000100110001;
	184 :	1001001010100010;
	183 :	0010100110010000;
	182 :	1111110001101010;
	181 :	0110100010011001;
	180 :	1110011111110100;
	179 :	1011000010011010;
	178 :	0000101111111100;
	177 :	1111000110100101;
	176 :	0000101111101010;
	175 :	1001000001000110;
	174 :	1001001101011010;
	173 :	0000010010010100;
	172 :	0101110100100111;
	171 :	0011111100111001;
	170 :	1111001001010101;
	169 :	0111100111100001;
	168 :	0000100110101001;
	167 :	0101110011011000;
	166 :	0110000101100000;
	165 :	1011110100100001;
	164 :	0010010110000000;
	163 :	0111011010110111;
	162 :	1000110101001000;
	161 :	0000101011100110;
	160 :	0111010110011011;
	159 :	0101101000011111;
	158 :	0001101111000110;
	157 :	1111001101010101;
	156 :	0110101100011111;
	155 :	0001100011111100;
	154 :	0010010100111011;
	153 :	1111000010101001;
	152 :	1001010111011000;
	151 :	1111001010110101;
	150 :	1111110100110000;
	149 :	0001010110111101;
	148 :	0101010011011001;
	147 :	0010010001000110;
	146 :	0100011010011101;
	145 :	1010010101011101;
	144 :	0010101011011100;
	143 :	0111101110001111;
	142 :	1011101101100001;
	141 :	0110110010010000;
	140 :	1111101011101011;
	139 :	0001111011011010;
	138 :	0010110111001000;
	137 :	1101110001000110;
	136 :	1010110101011000;
	135 :	0110000110000111;
	134 :	1111001101111110;
	133 :	0011001001100110;
	132 :	1111011011010110;
	131 :	0100111010100110;
	130 :	0100111000001111;
	129 :	0011000110101101;
	128 :	1111010110010110;
	127 :	1100001101010110;
	126 :	0110111011001111;
	125 :	1010001000010101;
	124 :	0110011011010000;
	123 :	0101011001111010;
	122 :	1100110000110110;
	121 :	0011001111001010;
	120 :	0100111101010000;
	119 :	0100000000100011;
	118 :	0010110001110001;
	117 :	0101110001000111;
	116 :	1110011010111111;
	115 :	1011010000001000;
	114 :	0011000111111100;
	113 :	0011010001001111;
	112 :	1101010010101100;
	111 :	0111011101001101;
	110 :	1001101011110011;
	109 :	1010001101001100;
	108 :	0101011001101111;
	107 :	1101110001111000;
	106 :	0000100000000000;
	105 :	1010000111010110;
	104 :	0010111111101011;
	103 :	0101010111001011;
	102 :	0001000011000011;
	101 :	1111011000001100;
	100 :	0011000001010010;
	99 :	0110101000111100;
	98 :	0001001001110100;
	97 :	0100001110111100;
	96 :	0101011010000011;
	95 :	0001011110111010;
	94 :	0011110011111111;
	93 :	1101101101000001;
	92 :	0100100111000010;
	91 :	0000111001010100;
	90 :	0110101110010101;
	89 :	0110001110100010;
	88 :	1111100000011101;
	87 :	1110110111100011;
	86 :	1011101000000000;
	85 :	1111111100101001;
	84 :	0001100110000111;
	83 :	1011000000011000;
	82 :	1101000110111001;
	81 :	0000011100101101;
	80 :	0111011000110110;
	79 :	1100111110111000;
	78 :	1100010110001010;
	77 :	0101000001101001;
	76 :	1001101100100100;
	75 :	1110110110011001;
	74 :	0111011011100011;
	73 :	0011101000000010;
	72 :	0010100001100001;
	71 :	0100001001000010;
	70 :	1000011101001110;
	69 :	1011100000100101;
	68 :	1100100101100001;
	67 :	1010000001000111;
	66 :	1110111111010101;
	65 :	0101101111000111;
	64 :	0110001100011110;
	63 :	1111010101010011;
	62 :	0101100000001111;
	61 :	1011001010010001;
	60 :	1010101110000110;
	59 :	0010111100110111;
	58 :	0100111011010101;
	57 :	0011011111001111;
	56 :	0101110101001011;
	55 :	0100101001110110;
	54 :	1011000010011100;
	53 :	1010100101101001;
	52 :	1000010000111011;
	51 :	0001000010110100;
	50 :	1000100100111100;
	49 :	0010100000010101;
	48 :	0110110011001010;
	47 :	0011111111000001;
	46 :	0011010101100001;
	45 :	0011010101000101;
	44 :	1101101011100010;
	43 :	1011110110100000;
	42 :	0111011100011011;
	41 :	1111010000010010;
	40 :	1010100101011011;
	39 :	1010000010010000;
	38 :	1010110010110100;
	37 :	1111011100111111;
	36 :	1101010001100010;
	35 :	1011110110110000;
	34 :	1010000010110101;
	33 :	0001111111000000;
	32 :	0010111010001011;
	31 :	0110101100101111;
	30 :	0011100111111000;
	29 :	1111011111000010;
	28 :	0011001001010010;
	27 :	0100101100010100;
	26 :	1101111100101111;
	25 :	0001000001101011;
	24 :	0101000010110101;
	23 :	1011000101001001;
	22 :	0000000100010011;
	21 :	1000000000000100;
	20 :	0000110000001010;
	19 :	0101100110011100;
	18 :	0101001101000100;
	17 :	0011001000000110;
	16 :	1010101000010100;
	15 :	1001111101101011;
	14 :	1010101010010110;
	13 :	1110111001000011;
	12 :	0011001100011010;
	11 :	0000100110000111;
	10 :	0001000001111000;
	9 :	1000011010010010;
	8 :	0111101011011111;
	7 :	0001101011000000;
	6 :	1111100110110010;
	5 :	1011010101000000;
	4 :	1000100110001011;
	3 :	1111011100110000;
	2 :	0001011001101010;
	1 :	1101101011110101;
	0 :	0000011100111011;
END;
